/**
  ******************************************************************************
  * @file    predictive_data_params.c
  * @author  AST Embedded Analytics Research Platform
  * @date    2025-03-26T16:13:05+0100
  * @brief   AI Tool Automatic Code Generator for Embedded NN computing
  ******************************************************************************
  * Copyright (c) 2025 STMicroelectronics.
  * All rights reserved.
  *
  * This software is licensed under terms that can be found in the LICENSE file
  * in the root directory of this software component.
  * If no LICENSE file comes with this software, it is provided AS-IS.
  ******************************************************************************
  */

#include "predictive_data_params.h"


/**  Activations Section  ****************************************************/
ai_handle g_predictive_activations_table[1 + 2] = {
  AI_HANDLE_PTR(AI_MAGIC_MARKER),
  AI_HANDLE_PTR(NULL),
  AI_HANDLE_PTR(AI_MAGIC_MARKER),
};




/**  Weights Section  ********************************************************/
AI_ALIGNED(32)
const ai_u64 s_predictive_weights_array_u64[703] = {
  0xbe0277753e921255U, 0x3e69a567beac53e8U, 0xbe804f4c3d8698d3U, 0x3e34bcc63ebbc4dbU,
  0xbda17ff33d66fa8aU, 0xbca350883d90cd09U, 0xbeab8e7abe5f2dd7U, 0x3eb9a7de3e956df6U,
  0xbe354941be717d7cU, 0xbc42ba23bc941144U, 0xbd552dcebc21e2e2U, 0xbdf0863cbd1f9c7aU,
  0xbb97e21cbe98304dU, 0xbb8a4527bb77fff0U, 0x3ea3dbb43aea12e4U, 0x3c5980d8bcd81e51U,
  0x3e6ae2833d9f6cb1U, 0xbed6cfbb3e84470eU, 0x3c98898c3e5d35cbU, 0xbe3f2afd3d906eb6U,
  0xbd4a64013e11c017U, 0x3ebb6f6dbec87825U, 0x3ed2d148bcbdd451U, 0xbe3e09d7be8c26f8U,
  0x3b8b366ebcadd839U, 0xbc927b483cc287e6U, 0xbd2265fdbdfe2be9U, 0x3ddbb7f33ea455faU,
  0xbe065923be0a3cb8U, 0x3e5121a6be86f88fU, 0x3d3c5be4bd5e18d9U, 0x3ea8a1673e769460U,
  0x3e71c330bbc3c028U, 0xbe594fb0be17fae7U, 0xbc47a4dabd2ba3b7U, 0xbed747183e175704U,
  0xbdba300bbd04e3e1U, 0xbd5dec3c3e325436U, 0x3e1711d83bf44b7eU, 0x3dfc39e93e915434U,
  0xbbfbefd4bcdbbce4U, 0x3ea1f87c3e6bc075U, 0x3b27a2133e00e120U, 0xbf3948ca3d2c3174U,
  0x3c99bb30bdb5976fU, 0x3d183871bcdbf811U, 0x3e5b4adc3e5fbc76U, 0x3d3f19b2bca17fddU,
  0x3e9fe97c3df96d00U, 0x3e93062f3e0d4ed5U, 0x3eb30a82bde34de5U, 0x3e9fd5743e97db7bU,
  0xbe9db455be0841bcU, 0xbe0e56023e748903U, 0x3ae6ba14baf184a9U, 0x3cd81077bc7c4cb0U,
  0x3e7f21443e98ed2cU, 0x3d9e91663ea516f9U, 0xbeef6400bd4718e2U, 0x3daf7e46be26e5acU,
  0xbe820eea3eacf5eaU, 0xbd06beb2be58d805U, 0x3e62d020bbbbc193U, 0xbef439f2bdf215beU,
  0x3d49196f3e2c872fU, 0xbeeb8f093dcfad58U, 0xbe5621253ce6b507U, 0x3b7d5a40be20d72dU,
  0x3e6e5fefbb6bc57aU, 0xbc47e19f3e97ebbaU, 0x3c4159a3bca73138U, 0x3e37c07f3c7adbfeU,
  0x3e0640bc3e7c517eU, 0xbe3c8ad6bedc9cb1U, 0x3c6060bdbe5b1490U, 0xbcfae3ec3dc20bcaU,
  0x3cb06dd43e53c077U, 0x3d4aaca83e8ff86bU, 0x3e6fe999be280f09U, 0x3e6fa09c3e26abfeU,
  0x3c934affbd1a9c61U, 0x3e8a37e73e48ac9bU, 0x3e024c7a3e53396aU, 0xbd962843bd1d7de8U,
  0x3e9b28babead2c42U, 0x3e431c5cbe844b0eU, 0xbcdf017ebe833fa2U, 0xbe5d8d513c266a50U,
  0xbdd01e553de8e083U, 0x3e94350abdc2bc6eU, 0xbbee828dbc07f041U, 0xbc15ad0f3b265025U,
  0x3e9c8ee43e8c2f60U, 0x3e13e3b0be77f1d1U, 0x3c730612bd16f475U, 0x3eb34327bd17c436U,
  0xbe64a57dbdd2e9a4U, 0x3de8d7233db41425U, 0x3e6e4694bd9ffe85U, 0xbd60d49c3e9e8b34U,
  0x3e5883a4be834786U, 0xbea1c455bdac830cU, 0x3c249c143d79af73U, 0x3e4fbbf7bc1debf8U,
  0xbb8052373e6d0634U, 0xbe68ae723e9fc485U, 0xbe4cad50bd8edf00U, 0xbe470599bc230068U,
  0x3e8552583dff4b2eU, 0x3e011f873e88944cU, 0x3c8b3304bd851c62U, 0x3bb96281bbbeccf6U,
  0x3d77fc2d3f00beddU, 0x3e052655bec40ed0U, 0xbe82c8b0bcd8d215U, 0xbe4ef40bbe8b6619U,
  0xbe082db7bcd3ad96U, 0xbdc73d83bec4d57bU, 0x3dc21a78bea685ffU, 0xbe35faf73dbc5ccdU,
  0x3e494bc8bec03697U, 0xbeaaec75be9e915eU, 0xbee0c9b1be842e5aU, 0x3cc352d7bf103f5cU,
  0xbec2b737bec5d622U, 0xbe8be86bbef0d4fcU, 0xbe8d12aebee6cc55U, 0xbe8ad823be97997aU,
  0xbeba8169be852b33U, 0xbed6c1c6be5b041aU, 0x3dbc16d0be611dfdU, 0xbd880da9be9ddb8bU,
  0xbef94870beb5271bU, 0xbecf5be6bbc38cf8U, 0xbc8ffb5fbf0954d6U, 0xbeb14f99bebd5872U,
  0xbe5d4003bec7ded5U, 0x3b284040bd51a0b4U, 0xbc8a60c7beb8d693U, 0xbeb6776ebe733b33U,
  0xbe9c98f9beb294fcU, 0xbd19441ebe5af407U, 0xbdef511dbf18ec13U, 0xbe398ea5bd8448a4U,
  0xc1241471c1257109U, 0xc1215b40c122b7d8U, 0xc11ea210c11ffea8U, 0xc11be8dfc11d4577U,
  0xc1192faec11a8c47U, 0xc116767ec117d316U, 0xc113bd4dc11519e6U, 0xc111041dc11260b5U,
  0xc10e4aecc10fa784U, 0xc10b91bcc10cee54U, 0xc108d88bc10a3523U, 0xc1061f5ac1077bf3U,
  0xc103662ac104c2c2U, 0xc100acf9c1020992U, 0xc0fbe791c0fe0ae6U, 0xc0f67530c0f92e61U,
  0xc0f102cfc0f3bc00U, 0xc0eb906ec0ee499fU, 0xc0e61e0dc0e8d73dU, 0xc0df97fcc0e440c0U,
  0xc0db394bc0ddf27bU, 0xc0d5c6e9c0d8801aU, 0xc0d05488c0d30db9U, 0xc0ca12c4c0cd9b58U,
  0xc0c56fc6c0c828f7U, 0xc0bffd65c0c2b695U, 0xc0ba8b04c0be2245U, 0xc0b5ce3ec0b7d1d3U,
  0xc0afa641c0b25f72U, 0xc0aa33e0c0aced11U, 0xc0a51facc0a6f396U, 0xc09f5104c0a301f8U,
  0xc09a13dfc09c36a4U, 0xc094b273c097238cU, 0xc08f96e4c091b12bU, 0xc088f354c08ba209U,
  0xc083f0fdc08809c6U, 0xc07d9428c0815a08U, 0xc0731593c0781bbcU, 0xc0668330c06d8490U,
  0xc05c1473c06205c8U, 0xc050b1efc0567356U, 0xc0456684c04b3431U, 0xc03b9121c0402ddaU,
  0xc030912cc036ec5cU, 0xc025e4dac02c8d11U, 0xc019983cc020a8eaU, 0xc012604ac01413baU,
  0xc005927bc00cac50U, 0xbff4bdebc00034f5U, 0xbfe0a73cbfeab1e7U, 0xbfc89c48bfd86b84U,
  0xbfb140abbfb9d34fU, 0xbf9bd3dabfa650bbU, 0xbf842bf6bf90d127U, 0xbf648a11bf749386U,
  0xbf36138dbf4dd259U, 0xbf0c2e79bf2658f1U, 0xbebe689bbee7c69aU, 0xbe43e507be96cbe4U,
  0xbd297966bde61b59U, 0x3dea1b163d1acce8U, 0x3e96167c3e53d923U, 0x3ee886bd3ebe72c9U,
  0x3f28a8203f0d9e8aU, 0x3f5589093f3dc4a1U, 0x3f7d24ed3f670946U, 0x3f93cb373f88a9d5U,
  0x3fa662f33f9d00e6U, 0x3fbbed853fb44ae4U, 0x3fd48c393fc6b370U, 0x3fe995663fdedafeU,
  0x40017b2e3ff40d53U, 0x400a7d364003d8abU, 0x40177ad6401178beU, 0x401fb44a401bdb27U,
  0x402be4ac4026124eU, 0x403982214031ee6bU, 0x4040c493403cf600U, 0x404bbb8a40448057U,
  0x40590c1e405130caU, 0x4063f6ca405a86d4U, 0x406cd6c540661146U, 0x4077d93b4071c2c5U,
  0x40815eff407c60e1U, 0x4085f6e54084182fU, 0x408c43c140898a90U, 0x4091b62240900b5dU,
  0x4095e52140942eaaU, 0x409c9ae440989bf5U, 0x40a20d46409f5415U, 0x40a77fa740a4c676U,
  0x40aca86540aa38d7U, 0x40b343ac40afab38U, 0x40b7d6ca40b51d9aU, 0x40bd492b40ba8ffbU,
  0x40c2bb8d40c0025cU, 0x40c82dee40c574bdU, 0x40cda04f40cae71eU, 0x40d312b040d02ff2U,
  0x40d8851140d66693U, 0x40ddf77240db3e42U, 0x40e369d340e0b0a3U, 0x40e8dc3540e62304U,
  0x40ee997a40eb9565U, 0x40f30b9d40f107c6U, 0x40f9335840f67a27U, 0x40fea5b940fb1cedU,
  0x41020c0d4100bc32U, 0x4104c53e41039247U, 0x41076067410621d6U, 0x410a379f4108db07U,
  0x410cf0cf410b9437U, 0x410faa00410e4d68U, 0x4112633141110698U, 0x4114cc624113bfc9U,
  0x4117d592411678f9U, 0x411a8ec24119322aU, 0x411d47f3411beb5bU, 0x41200123411ea48bU,
  0x4122ba5441215dbcU, 0x41257385412416ecU, 0x41282cb54126d01dU, 0x412ae5e64129894dU,
  0x412d9f16412c427eU, 0x41305847412efbafU, 0x413311774131b4dfU, 0x4135caa841346e10U,
  0x7879766a93657773U, 0x7b7b6b5b68628274U, 0x667c797e7184517eU, 0x80707b7666747186U,
  0x706f7d697b787081U, 0x838080767c7f715cU, 0x5b81a48c5c81787aU, 0x837b73577f93707bU,
  0x827c80717a656f7aU, 0x82797891347b7d4fU, 0x627a7cb1827e787dU, 0x626f63a57c684183U,
  0x7a7ba0598c85747fU, 0x7e5b7395716c8b7aU, 0x60767e7b7e9f737eU, 0x89735f74ff717c8dU,
  0x8c5a718a757a737bU, 0x7f7976797667da5fU, 0x77c6848b6a6a797eU, 0x887976874f85727dU,
  0x7f7e818282847b94U, 0x7a8174d68d787f7eU, 0x756b7c87797c7394U, 0x7e7c79877ea68b62U,
  0x74a57b869869797cU, 0x89758e5241807f7bU, 0x7d8578757e608282U, 0x78797dbb5d787984U,
  0x5d8d6b7a7e7c7393U, 0x7a7775817c8a496bU, 0x5792848182657a7eU, 0x8d85916a4e818d7bU,
  0x7f82727b7f5b847fU, 0x796e7d9e4e73817aU, 0x75586b717e75718eU, 0x807777767b776378U,
  0x7b6c7b5a7c808373U, 0x657e7987909e7576U, 0x857d72808a7f7b6eU, 0x7f8f8080717f737bU,
  0x818c8293747a8763U, 0x7978777d7755806bU, 0x64529c7c97887b79U, 0x597e7e7378969576U,
  0x807a7a7d7f797e54U, 0x7c7f7d438a7b7798U, 0x8d787a9a7b7b7e53U, 0x69666b8c796d7376U,
  0x74746b52847f777aU, 0x7d718fa37f4c6f79U, 0x707778827b9d7275U, 0x807e6b7be7787984U,
  0x8a8280696d757c80U, 0x7d767a677682b060U, 0x74828e84ab75757bU, 0x7d558d727a6b7f7aU,
  0x6b7a57737b7f6d7dU, 0x8c82637f82737bb2U, 0x82636f8c7054767eU, 0x7277707773716d68U,
  0x8c7c496867847877U, 0x817457957a00767aU, 0x5a71848070777778U, 0x626c7a78687c795aU,
  0x7b7b755d79797c7dU, 0x8786746e77836c77U, 0x809c866b597c7777U, 0x8b733c975a82777cU,
  0x6a7f848076936f8bU, 0x7576738f9b74794dU, 0x867a69a17c7c728eU, 0x73757e7f83929a72U,
  0x7272757c9381717bU, 0x7665a5757f7f8f7bU, 0x7b764375747d837eU, 0x726d6e716a767e97U,
  0x7861696c7d457c71U, 0x7f79787d77647794U, 0x6c78d393917e7576U, 0x7b78797980b97679U,
  0x7b7c76677a747a7eU, 0x7f7e79835b7b788bU, 0x80787bd8807d7d7dU, 0x4e7167997b716b80U,
  0x7a7a7872a884737aU, 0x78659373837e9e7bU, 0x7b733f757c7a7c78U, 0x7373767775767aa0U,
  0x7f7b6b767747787fU, 0x7a74797476666b8aU, 0x716e8279a1846f7bU, 0x747e8e788a808e7aU,
  0x7d74557877717972U, 0x78767b73797b7b88U, 0x89736b947d568169U, 0x7871737f71378141U,
  0x6d7f738385867b83U, 0x794e8a74728b8c7bU, 0x857575807d7b9b77U, 0x5f76597b707c8682U,
  0x756d707f7778797cU, 0x7e7c7b7e7466798fU, 0x7b6e1c928a807978U, 0x6e73854f7d2f7e78U,
  0x7671747975657f6fU, 0x697a7c663d6e7c87U, 0x787b7e2679777b61U, 0x76736c6073a04681U,
  0x7f7c6c4195607b7dU, 0x78848da5728c857aU, 0x767a737a7c9b7581U, 0x797d777edd7b7b94U,
  0x9748807b6c747876U, 0x7e7677737d5fc894U, 0x81867245546d7f79U, 0x7d6b56a57f987f7bU,
  0x6b7b80827f987f7fU, 0x807e737cd17a7d27U, 0x967677906f788174U, 0x7c7a7e737f5a987bU,
  0x9a778b546d85767dU, 0x7c5686ab7b7b657aU, 0x7280736e78a06d80U, 0x96835c85887e7a71U,
  0x8a84807f7d748684U, 0x6a7a79877b659e90U, 0x766947538b617b7aU, 0x7f7f8e9477409079U,
  0x777a6c7d7ca27d7eU, 0x7d7a714ba2797d91U, 0x82567a466e667c80U, 0x7f7d79688877ae88U,
  0xb2787b5467886f76U, 0x7c6c5e969a666f77U, 0x78707c73809d7a76U, 0x7675786b7f767656U,
  0x8590806f7d827d79U, 0x52736b76798c9a95U, 0x86485d7662797876U, 0x6e746764796c6c79U,
  0x7570887a784c7b5dU, 0x74797c433f787449U, 0x6c9a7c647d7e7b5cU, 0x777673726f913e6fU,
  0xbdf60ab03fd1ea3cU, 0xbfc96e48befed9fbU, 0xbea9724dbf84de7eU, 0xbd98686ebec98972U,
  0x3f056ba43f048912U, 0xbe40133f3fd297f8U, 0xbf69d3a8bded9309U, 0x3e7c0f4c3e2b6a24U,
  0x3ffe7565bf942f6fU, 0xbe3f039bbe15f85aU, 0x3ed9430abef01ee4U, 0x402d12c53f3c05b8U,
  0xbf808edbbf81676fU, 0xbf7dbb67bf7f6c8fU, 0xbf7a5918bf7c0a40U, 0xbf76f6c9bf78a7f1U,
  0xbf73947abf7545a2U, 0xbf70322bbf71e353U, 0xbf6ccfdcbf6ee13fU, 0xbf696d8dbf6b1eb5U,
  0xbf660b3ebf67bc66U, 0xbf62a8efbf645a17U, 0xbf5f46a0bf60f7c8U, 0xbf5be451bf5d9579U,
  0xbf588202bf5a332aU, 0xbf551fb3bf56d0dbU, 0xbf51bd64bf536e8cU, 0xbf4e5b15bf500c3dU,
  0xbf4af8c6bf4ca9eeU, 0xbf479677bf49479fU, 0xbf443428bf45e550U, 0xbf415ddcbf41c540U,
  0xbf3d6f8abf3f20b2U, 0xbf3a0d3bbf3bbe63U, 0xbf36aaecbf37e48bU, 0xbf3324bdbf34f9c5U,
  0xbf2fe64ebf319776U, 0xbf2c83ffbf2efc4aU, 0xbf29c9b8bf2ad2d7U, 0xbf25c16cbf277088U,
  0xbf225d12bf2455d6U, 0xbf1efac3bf2082f3U, 0xbf1b9874bf1d8410U, 0xbf180d9abf19ec80U,
  0xbf14d3d6bf1684fdU, 0xbf117187bf1322aeU, 0xbf0e0f38bf0f64c7U, 0xbf0aace9bf0c5e10U,
  0xbf074a9abf09c5f5U, 0xbf03f34abf057fccU, 0xbf0085fcbf01f1f3U, 0xbefa4759befda9a8U,
  0xbef3ac53bef6e50aU, 0xbeee284fbef1cb91U, 0xbee6272fbee95bceU, 0xbedf34e1bee1f51eU,
  0xbed91789bedbd292U, 0xbed1aba5bed39b4eU, 0xbecc0413becf66f4U, 0xbec42269bec7549dU,
  0xbebc3593bec0c01aU, 0xbeb8420ebebaddafU, 0xbeaed269beb390cbU, 0xbea820e5beabf864U,
  0xbea29bf5bea55ba4U, 0xbe9b86b5be9d6a23U, 0xbe94f970be99258eU, 0xbe8e21cbbe91008eU,
  0xbe8634a1be8956bbU, 0xbe7fa9acbe844d9bU, 0xbe72f5b8be7b30c8U, 0xbe64ca07be6ab0edU,
  0xbe58180abe606494U, 0xbe4a780ebe515d38U, 0xbe3f9c81be45690dU, 0xbe30d167be364bd3U,
  0xbe221402be28762aU, 0xbe13b1f5be1b028dU, 0xbe072cf0be0d002fU, 0xbdfa9f77be029d29U,
  0xbdd79d95bde3c705U, 0xbdbcb9f7bdca50d7U, 0xbda04720bdaedf54U, 0xbd8a6bacbd93ef67U,
  0xbd5f062abd7ccbb4U, 0xbd204354bd3773a3U, 0xbccf816fbd09db1fU, 0xbc5a1234bc9c715cU,
  0x39ab2103bbc559a1U, 0x3c82fe953c01b3b0U, 0x3cf18c423cb41fd3U, 0x3d28f5f03d12120cU,
  0x3d50d90f3d38f2e9U, 0x3d84d7113d73e39aU, 0x3da284233d932dc0U, 0x3dbcf8003db1de24U,
  0x3dda91803dc992d2U, 0x3df5b72a3de72361U, 0x3e07d19e3e0092f2U, 0x3e15b72f3e0fdcecU,
  0x3e222e103e1c504fU, 0x3e31acfa3e2cd74cU, 0x3e40a3263e3849d8U, 0x3e4b93723e4621d4U,
  0x3e58dabd3e53985aU, 0x3e65b5f23e5fe15dU, 0x3e74ab7a3e6d4bbbU, 0x3e80bb393e7ab1d3U,
  0x3e88d2fa3e83a55bU, 0x3e8e86b23e8a0be2U, 0x3e95b1293e93489eU, 0x3e9bcdb13e986b62U,
  0x3ea2924f3e9f3000U, 0x3eaaa68b3ea5f49eU, 0x3eaefa003ead6426U, 0x3eb6e0293eb2b038U,
  0x3ebda4c73ebb634fU, 0x3ec5cea03ec0de64U, 0x3ecb2e033ec7b66cU, 0x3ed1f2a13ece9052U,
  0x3ed720c23ed554f0U, 0x3edf7bdd3edbdd9aU, 0x3ee6407b3ee4525bU, 0x3eed05193ee9a2caU,
  0x3ef3c9b73eef6b07U, 0x3efa8e553ef72c06U, 0x3f00a97a3efdf0a4U, 0x3f040bc93f020fceU,
  0x3f0758393f05bcf0U, 0x3f0ad0673f091f3fU, 0x3f0da6723f0c818eU, 0x3f1195053f0fe3ddU,
  0x3f14f7543f13462cU, 0x3f1859a33f16a87bU, 0x3f1bbbf23f1a0acaU, 0x3f1f1e413f1d6d19U,
  0x3f2288fb3f20cf68U, 0x3f25e2df3f2431b7U, 0x3f29452e3f279406U, 0x3f2ca77d3f2af655U,
  0xa592a9ab96a49c77U, 0xc1e0ae9079b1d991U, 0xb1a5ab7e9ab18fabU, 0xcd948c5c5668978aU,
  0xa7619aa3829b599bU, 0xab87ab8094809ca3U, 0x5a7b9e99939291dcU, 0x616f696d8cb6b59bU,
  0x8b698e89b39173ceU, 0x8893a59d9597aa3aU, 0x8e32a5269d99828eU, 0x8f8c87b09d7f8937U,
  0x8f83b2aaa17e8c8aU, 0xb3bc95b4949d8a8fU, 0x9751a36ea49982c5U, 0x8bb8817ca8806e9aU,
  0x8395528ca3c4a4b1U, 0x97aaac909a99a283U, 0xcca182a4965db3a4U, 0x669f9da99982c05eU,
  0x93aa719e776aafa1U, 0x5993b49ea2a68db0U, 0x7785a59cafb1c2a5U, 0x80ad9ec49da57f93U,
  0x848d899183ad817eU, 0x98b87794818dd3a4U, 0xb273938e8195da78U, 0x8994a2909b96aa4bU,
  0x8caeacd4a86da094U, 0x89659a84869f82abU, 0xb7819f8893ae8d7aU, 0xd0ed94d47583d2afU,
  0xb69f97a88da78fadU, 0x6c70916382a0767cU, 0x708173698ebd90a0U, 0xa5a8a1869fa4acbbU,
  0xa8869393a89ca1f9U, 0x893fab26b29538a3U, 0x8883a8a6a1af9eaaU, 0xb283a29793ad75b1U,
  0x5637a400ad9e729bU, 0x837f929aa6996790U, 0x815db18e9166abb4U, 0x623c89a8ac932f96U,
  0x9d7d7a69848299a8U, 0x939872978a909fe9U, 0x764cb02cacbaa4adU, 0xa6af9cb79690c344U,
  0x8771a09e9b539099U, 0x8aafa28092b4a264U, 0x8f92768282669999U, 0x638c989488ad924aU,
  0x9e997f9b85b49891U, 0x6da8ac6e9ba4949fU, 0x8c709876799d9535U, 0xad838697b198b0a5U,
  0x9c8baaae939da581U, 0x7ba4a59ea08f688dU, 0x996f3e8a91ab8b9aU, 0x9a9b989f9893cb76U,
  0x8b8ab49fb6958b4aU, 0x9927966fa6b40c91U, 0xae92a1b09b928fbbU, 0x9d9669a67f93889eU,
  0x7a7e916c84829895U, 0xe6af707c8f959168U, 0xa4a36e557a839bd2U, 0xc0a4999c758dab93U,
  0x96a1a1a094958672U, 0x8274b6acb3c0a148U, 0x66819ee6a5a1ffafU, 0xa2b58a95b2a29b95U,
  0x3fa644bcbe81469eU, 0x3fe297233f9a5789U, 0x3f8b06d33f318629U, 0xbddcf4093f597ff8U,
  0x3fa247fc3f074b35U, 0x3f9b6f6fbd991078U, 0x3ffdbc1e3f2541c3U, 0x3dfd76013f8e5949U,
  0x3fcc04e53fa4ac84U, 0x3f5ade913f3f3569U, 0x3f37a7b73f1e2ff6U, 0xbf607d8e3f46fdf8U,
  0x3f8a2ba83ebf22d6U, 0xbfa83aafbe69bd41U, 0xbdda1dbb3f5a3812U, 0x3c58aad93dd475caU,
  0x3f4ed82d3ee7da46U, 0x3e3e8a8b3ef458d8U, 0xbe1812a2be9ffa54U, 0xbee67389bf88770bU,
  0x3dcc69163fbf4c62U, 0x3fc909723f7afaa7U, 0xbfadc411bf4e611eU, 0x3ee18bc2bf4c9549U,
  0x3ee1684cbda5ab31U, 0xbd38a2583f1bcd33U, 0x3b4df13ebe29ceb6U, 0xbe6e92af3d22ee31U,
  0xbe5e8ce03f0dfa18U, 0x3f75a5313dae2d86U, 0x3e0c138ebe870a7eU, 0x3f14fda93e77c878U,
  0xbed64bbc3f8647f6U, 0x3fa1133bbf4752f6U, 0x3e73bd21be9854ccU, 0xbeac35643e4152c3U,
  0xbfd116c7bf03c2bdU, 0x3ec704cd3ec790bbU, 0xbe8aa3cb3eb138fdU, 0xbf11fe113eaf7276U,
  0x3e9b55c4bf2498b3U, 0xbf695fc1beacf003U, 0x3e8025953dfe3c42U, 0x3e0187183f29e143U,
  0x3e070de43fd13233U, 0x3f3abd90bf6a3652U, 0xbf5fb50d3d8b9523U, 0xbebc1840c013cebdU,
  0xbf102feabe71d53aU, 0xbee3ab3e3f23a6beU, 0x3ee93e6bbd65dbbfU, 0x3eb4d8b1bf89e320U,
  0xbf055f3fbf277c6cU, 0x3f174951bed396abU, 0x3f53fe7d3e4b50b7U, 0xbe2189d2bf45062eU,
  0x3e9abc22c0172ab9U, 0x3f67f60b3d7bdfcdU, 0xbf211d54bd61ffceU, 0x3eb0b8b43e6978b9U,
  0x3dabf98abe83a8c2U, 0x3f7165c3bf24f0ecU, 0xbf17161cbf2536b6U, 0x3ea1d67b3eb35bcbU,
  0xbe824291be60c3f5U, 0xbe91a131bd07c89eU, 0x3e7f000cbe86188bU, 0xbebf0e41be9439abU,
  0xbed24c4f3effa7b8U, 0xbf8be3ebbe6a6f4cU, 0x3f3b2fec3cc6a182U, 0x3e6db4603f93e041U,
  0x3d626dd0bfc83889U, 0x3f6d83ba3f98ee53U, 0x3f4a3d04U,
};


ai_handle g_predictive_weights_table[1 + 2] = {
  AI_HANDLE_PTR(AI_MAGIC_MARKER),
  AI_HANDLE_PTR(s_predictive_weights_array_u64),
  AI_HANDLE_PTR(AI_MAGIC_MARKER),
};

