/**
  ******************************************************************************
  * @file    predictive_data_params.c
  * @author  AST Embedded Analytics Research Platform
  * @date    2025-03-21T09:40:28+0100
  * @brief   AI Tool Automatic Code Generator for Embedded NN computing
  ******************************************************************************
  * Copyright (c) 2025 STMicroelectronics.
  * All rights reserved.
  *
  * This software is licensed under terms that can be found in the LICENSE file
  * in the root directory of this software component.
  * If no LICENSE file comes with this software, it is provided AS-IS.
  ******************************************************************************
  */

#include "predictive_data_params.h"


/**  Activations Section  ****************************************************/
ai_handle g_predictive_activations_table[1 + 2] = {
  AI_HANDLE_PTR(AI_MAGIC_MARKER),
  AI_HANDLE_PTR(NULL),
  AI_HANDLE_PTR(AI_MAGIC_MARKER),
};




/**  Weights Section  ********************************************************/
AI_ALIGNED(32)
const ai_u64 s_predictive_weights_array_u64[691] = {
  0xbd8cb06c3e8e7128U, 0x3c1e57e0be371b80U, 0xbe2c9d293e881d32U, 0x3e0e9376be1dc041U,
  0xbe171745bee1ed80U, 0xbe8890a9bd696fa0U, 0xbd615320bcd1ca50U, 0x3d96f62e3e0f8b4aU,
  0xbce2d6f03e274e9eU, 0x3dc2e256be858ccbU, 0x3e7c7da2be6e52adU, 0xbdaa7ff83d07b0eaU,
  0xbd75c3ecbe938867U, 0xbe2a056b3dd45ff0U, 0xbe7f09953d4e6c18U, 0xbdcfe730be917d12U,
  0x3e4ea0f0be095f73U, 0xbdc359d83e4ec1fcU, 0xbe8b58c53e7c319cU, 0xbc80d0403e03cc74U,
  0xbe9ce7bbba99d8b3U, 0xbee8c7903d65561dU, 0x3e08970ebd0a63f5U, 0xbe86deab3e7cad54U,
  0xbe6df6b83d0ba318U, 0xbeaca1583c800e3dU, 0xbd1ac35c3d602de4U, 0x3e6f41533d571547U,
  0xbd28079c3e22d801U, 0x3e425fe2bea687c2U, 0x3e3b09f33e59891eU, 0x3d4b587fbe0a654bU,
  0x3e36fc603e9e52c0U, 0xbe6ed5103dccc638U, 0xbe8a3c12bde2e184U, 0xbe9a341f3dc74382U,
  0x3db069313d548102U, 0xbd16b5b8bd7158e6U, 0x3c9241e0be8a4ceaU, 0xbe676a7e3de18064U,
  0xbe337e653e3ba753U, 0xbec0860e3df8e730U, 0xbe8768b5be92d0baU, 0x3e2aa29bbe8a59caU,
  0xbdee0d92be2582b0U, 0xbe7bc444bc85eadfU, 0xbeb437353d9a68afU, 0xbcbd4ee63e090beeU,
  0x3da1bb13bd97fd2fU, 0x3d7b47fd3e3d5b08U, 0xbe8ccc4ebd23ec06U, 0xbe226a083d84ad35U,
  0xbe1098693d8d05b1U, 0xbe0a9737bdded892U, 0x3d39a3a03e6119b4U, 0xbd95057abebb98ecU,
  0xbe0bc1753e1586dbU, 0x3de36beabdb4ab38U, 0xbc7562ffbde43399U, 0x3e443286be1a33f2U,
  0xbe62fee93d9cb344U, 0x3daa01523da9394bU, 0x3e1d364abea5e04cU, 0xbdb85a7a3d910328U,
  0x3cdc21803e699df8U, 0x3d9f030d3daf543eU, 0x3e9c4a0ebd9c38d1U, 0xbe6ad86f3e706673U,
  0xbe2eeba6bd9df0f8U, 0x3d142350b88c6000U, 0x3dbc09b5bc151eebU, 0xbe2038ec3d29c4e9U,
  0x3e8ece92bd5a38b3U, 0xbde03af2be36f918U, 0x3e33d2323dc85b14U, 0x3e63dbdcbdcc826eU,
  0xbe300afabd1d1200U, 0xbe777274bd9ae25aU, 0x3da256a7be5fc76bU, 0x3e2842d1beef608aU,
  0x3e870872bcca47d0U, 0x3e76ccb0bda9ddf0U, 0xbca51b80bd066770U, 0x3dd2d3d0bcc0dc07U,
  0xbebb59babeb06988U, 0xbe7f4b11be6db77cU, 0x3e36e9a2bd9ab7a0U, 0xbe260b243e8b4d48U,
  0x3d348b01be9279b6U, 0xbd2b98753c99d9edU, 0x3e0d06a83da8b470U, 0xbe91057fbe0bec61U,
  0xbe880668bda51a56U, 0x3e0d5b48bcf2383cU, 0xbd78910bbe9bd7fcU, 0x3dd05eb0be84489eU,
  0xbe5c03f8bdf98c6cU, 0xbdabe77abdc73486U, 0xbe14c4713e6abcb4U, 0x3d35fc483e5350ccU,
  0x3e22effa3ded2ec4U, 0x3debea54be2c9ed7U, 0xbd1f6a283de4bd44U, 0xbe4275583e8ca814U,
  0xbdba467cbe25a367U, 0x3e066fdfbd85e025U, 0xbdab54f53c9ae034U, 0xbea0d9d9be4782baU,
  0x3de64dc2be65b6bbU, 0xbeec313ebe98cb11U, 0x3da541683e914074U, 0xbc215600be8c35e5U,
  0x3e94f5883e96197cU, 0xbe2b22a5be89a9edU, 0xbd60e734be187298U, 0x3e38842abdc1e596U,
  0x3e93094abe6b452cU, 0xbebf6018be7c6ef1U, 0x3d67a11d3ca24611U, 0xbd81f0dbbe82ee20U,
  0xbd102f003e923a6aU, 0xbe840bd3bd79b33cU, 0x3e869f9cbe3c04e3U, 0xbe3121bcbe8d63cbU,
  0x3e9551c23dfed4b8U, 0x3e4dc9993e6ccafcU, 0xbd8ddfaabcfe3492U, 0xbd827d143e109bf5U,
  0x3d6edc3e3e0f92c6U, 0xbe71dc23bd3d54cfU, 0xbe36cbcf3e5a575cU, 0xbe91583dbe06a5cfU,
  0x3cb8a19ebe131218U, 0x3e22a824be59705eU, 0xbec9d4a53cd2fc10U, 0xbe5f69c7be660e06U,
  0x3e9f4cbe3d880becU, 0xbdf9a35ebb8760a0U, 0x3d008173be57b175U, 0x3e4b042d3cbeaf23U,
  0xbe286c74bc43efdcU, 0xbe91b1263c88a3deU, 0xbdc2faf63e58c197U, 0xbe7f77d53e5ca5a4U,
  0x3dbcbe9c3e885d68U, 0xbe3532523b4a8512U, 0xbcdc643a3d8cb1b4U, 0x3e3889a4bd7e1e4bU,
  0x3c8f6c3abe1b8e43U, 0x3dec0efe3def529cU, 0xbe7ea9153dc610b4U, 0x3df7d2b0be7372bdU,
  0x3e4438b5be87d908U, 0xbda89c183e4330ceU, 0xbd1cdcb53eb217d6U, 0xbe8875423e929246U,
  0x3d291d88bd7d40d0U, 0xbeb53818be800ac5U, 0x3d9c416f3e501c6cU, 0xbd262e3f3b32e060U,
  0xbdd18bf200000000U, 0xbde8b46900000000U, 0xbd2c8d5fU, 0x0U,
  0xbe244660U, 0xbcc48892bdb98234U, 0xbd2a061dU, 0xbe2f8559U,
  0xbdd415e9bda4f134U, 0x3cf7e000bc1db23aU, 0xbe2fa925U, 0xbc3f979abdd6a29cU,
  0xbd802b2dU, 0xbd813de1U, 0xbe2d02d7U, 0xbe22162100000000U,
  0xbe2f5f1600000000U, 0xbbfb90ad00000000U, 0xbdd4889c00000000U, 0x0U,
  0x0U, 0xbe59cabebe0398f4U, 0x0U, 0xbe13567f00000000U,
  0x0U, 0xbe10bbe6bd7478dcU, 0xbd8ff97a00000000U, 0xbe1e8df5bc140ce1U,
  0xbdaae5aaU, 0xbb8e4536be2744a0U, 0x3baf945400000000U, 0xbdae061f00000000U,
  0xbef58a17bef71418U, 0xbef27614bef40016U, 0xbeef6212bef0ec13U, 0xbeec4e10beedd811U,
  0xbee93a0dbeeac40fU, 0xbee6260bbee7b00cU, 0xbee31209bee49c0aU, 0xbedffe06bee18807U,
  0xbedcea04bede7405U, 0xbed9d601bedb6003U, 0xbed6c1ffbed84c00U, 0xbed3adfdbed537feU,
  0xbed099fabed223fcU, 0xbecd29c3becf0ff9U, 0xbeca71f6becbfbf7U, 0xbec75df3bec8e7f4U,
  0xbec449f1bec5d3f2U, 0xbec135efbec2bff0U, 0xbebe21ecbebfabedU, 0xbebb0deabebc97ebU,
  0xbeb7f9e7beb983e9U, 0xbeb4e5e5beb66fe6U, 0xbeb1d1e3beb35be4U, 0xbeaebde0beb047e2U,
  0xbeac0723bead33dfU, 0xbea895dcbea9d14dU, 0xbea58667bea70bdaU, 0xbea26dd7bea3f7d8U,
  0xbe9f59d4bea0803eU, 0xbe9c8436be9e49a3U, 0xbe998951be9abbd1U, 0xbe961dcdbe979b85U,
  0xbe9309cbbe94d42bU, 0xbe9035d0be913274U, 0xbe8cd3ccbe8e3c65U, 0xbe892115be8b3590U,
  0xbe8611a2be878fb3U, 0xbe839b34be84bcb3U, 0xbe80a51fbe8218cfU, 0xbe7b88f1be7e5917U,
  0xbe74f7ccbe77fe78U, 0xbe6ef810be7138aeU, 0xbe682b05be6c19a7U, 0xbe623265be657c30U,
  0xbe5c4d59be5f9a08U, 0xbe5630ebbe5a305fU, 0xbe500b0bbe5305cbU, 0xbe49163bbe4ce89eU,
  0xbe422224be44e8f7U, 0xbe3d0225be3fa9ceU, 0xbe37cedbbe3acc1dU, 0xbe312548be33fa35U,
  0xbe2a6142be2d66caU, 0xbe253764be27c1deU, 0xbe1e30c3be21f451U, 0xbe18518bbe1b31a5U,
  0xbe1282c9be152a1aU, 0xbe0be345be0f117fU, 0xbe075bc4be09f614U, 0xbe0012aebe032a7dU,
  0xbdf21452bdfaf962U, 0xbde6dcecbdedde6bU, 0xbdd99efdbddf67bdU, 0xbdce1f53bdd3eefdU,
  0xbdc15b68bdc81220U, 0xbdb5f17dbdbb6b99U, 0xbda89832bdb01468U, 0xbd9c085cbda1bc7aU,
  0xbd8f917cbd96933fU, 0xbd83de93bd8a3771U, 0xbd6c25afbd7966f8U, 0xbd5557dabd60d59eU,
  0xbd3fbbafbd4b475bU, 0xbd24c562bd327859U, 0xbd0dd5b8bd1ac30dU, 0xbce9b7aebd01824aU,
  0xbcbb853abcd4300cU, 0xbc7d5c13bca2f8f2U, 0xbc2ba2cbbc5213c9U, 0xbb9edda9bc07c2a0U,
  0x3ac22723badd5551U, 0x3bfca8583b8af6c3U, 0x3c6c6f573c4053eaU, 0x3c9f43fd3c8bfac7U,
  0x3ccf0c4f3cb889a9U, 0x3cfc54cb3ce2a140U, 0x3d17f4d63d0cbd3cU, 0x3d3213153d2548f1U,
  0x3d4b2cde3d3dcfa5U, 0x3d6432b83d5818e3U, 0x3d7f2f4f3d716c24U, 0x3d8b56f53d849554U,
  0x3d96dc3b3d9092dfU, 0x3da35cd63d9dbdfeU, 0x3daf47e63da98120U, 0x3dbb788f3db45f08U,
  0x3dc76e333dc0b2d9U, 0x3dd538183dce7c54U, 0x3ddfa2093dd8e171U, 0x3ded15113de531a0U,
  0x3df8c5a23df37e1bU, 0x3e029e943dff5803U, 0x3e09307e3e062d89U, 0x3e0fc7a23e0bb24dU,
  0x3e14b5313e129dd2U, 0x3e1b53e03e1789f4U, 0x3e2105543e1e80b4U, 0x3e26f45a3e240786U,
  0x3e2df27f3e2a864dU, 0x3e3425843e313abfU, 0x3e39d9553e373055U, 0x3e40cf633e3d0a1aU,
  0x3e46b3953e436522U, 0x3e4c70093e49619dU, 0x3e5342293e4f395bU, 0x3e58f6163e55df1bU,
  0x3e5e40803e5b69c8U, 0x3e6527253e605052U, 0x3e6ad2203e681e43U, 0x3e71b81e3e6ed4adU,
  0x3e772ee43e74fd77U, 0x3e7cef963e7a4c5aU, 0x3e81ff0a3e7f724cU, 0x3e84af863e83890bU,
  0x3e88270f3e869d0eU, 0x3e8b3b113e89b110U, 0x3e8e4f143e8cc512U, 0x3e9163163e8fd915U,
  0xdfd79074a58895efU, 0x7b78ae55ae63a7acU, 0xa75af1657edc5982U, 0xc17ea4b77a9e6aa6U,
  0xc0f3a3f1a0614dabU, 0x8b64c495b6d3cd98U, 0x5873c35ea482dd9cU, 0x48a37080736b9251U,
  0x8caec46bd98a7677U, 0xdec77f84a54fd45bU, 0xe992c292657ead75U, 0xae9cef9bf0aca869U,
  0x86db678dbfaf9559U, 0xca6fbcbc79b785b8U, 0x5fa88e6e8c908389U, 0x85aa38dfb5a18ea6U,
  0x8c6d877c68b27dd6U, 0x51525b5356b69cd5U, 0xa867bfb48bbf5b55U, 0xc7cba14ef09aab88U,
  0xa6e64bdcb0b3c850U, 0x7bb2798e53ba6368U, 0x7bcab769c1aeed6bU, 0x82a47b568f9a9196U,
  0x86c0d29c83f0599eU, 0xd348d3ab59b1a7a9U, 0x969990cd6371ca89U, 0xc8b4da7fc273efd0U,
  0x54839ae2a9ce9564U, 0xdeb28d719cbce059U, 0x951b5298c54ec777U, 0xb5ddd46450bd923bU,
  0xedd19f68b783b16dU, 0x5a7b585ead78a16cU, 0xc358d3834455c760U, 0xb259dcb4e04ad1b4U,
  0xdd78cb6357574553U, 0x8ddac0a7a944cbabU, 0x8275596483a66d98U, 0xa0bed84f73c5c9c5U,
  0x59b5c9c5c8674d5eU, 0x6e58b2a6a4deba52U, 0xdf5a658354dd5d5fU, 0x82c8e87b754d82a2U,
  0xbb946daf5ddb53c0U, 0xa685d9b0d9c5616dU, 0xc2c3b4b972bf587eU, 0xa96fe0ec3ed3dc9fU,
  0x9abf7eb5b6f0b6a0U, 0x7683d556a6b0a6c6U, 0xf292adc7a3d5abb4U, 0xa1ceabb6db766cdeU,
  0x9b9eb7ce52b4ab8bU, 0xad96c28be993956cU, 0x82ad9fbbaab2e65cU, 0xac7f00c6b4d39166U,
  0xb1ec4d7cb150a79fU, 0xe568aa9eafdc64d8U, 0x894cddaf9e527d70U, 0x4daede844fa6528eU,
  0x52e863aa6b8d808cU, 0x76dde89a9188914eU, 0x4d9480a4d0bbd16aU, 0x8a6997c0bf757e56U,
  0xdf76cbca98dd5b82U, 0x4e83625180b5c7eaU, 0xe79a8edeabdba0a7U, 0x8d6e637aa46d578bU,
  0x966553c68d8255b2U, 0x86cd63946b56cdc4U, 0xa56bd7a66366bd69U, 0x84b4a8f1588a88c0U,
  0x91e9c8b9859eb16aU, 0x8bc697b5c28fc893U, 0xeec470e5d8c27ac9U, 0xa0ea94d5a6bcbc6cU,
  0x57e087addba0769bU, 0x97c987e9b6719b51U, 0xe7c79e6dea915d52U, 0xef9781cb73bb5696U,
  0xd2a9aa76958d5155U, 0xa89d87b06aac79e4U, 0xd3ab689d8f8a7ba2U, 0xdcaa65df787c6e71U,
  0xaef36eba7bf18687U, 0xcf8cb0d2b5e8b08bU, 0xe347d680658ed2e4U, 0xabf362d9846b80a9U,
  0x97538458b09c6b84U, 0x534aada6947d6c55U, 0x7f65e9575c389488U, 0xd16ddb928f64d049U,
  0xd2584db567927b52U, 0xad72bfb1c19681c5U, 0x56a36a8dad4e826eU, 0xd3598f73ce884f53U,
  0xb65fbb6a4f8c89adU, 0x8ad66ddd7fbc5865U, 0x777fa4c25bad6c66U, 0x866f6fc6aab9549dU,
  0x6b6c4f9dd276aeafU, 0x4a8899cb844caf5cU, 0xacde664e8b83ea75U, 0x71f25b50a8dea1a4U,
  0xe27e51875dd74e93U, 0x586977b5c7624f72U, 0x5448bf943bca8e5dU, 0x66ace8cb9c5caadaU,
  0xd996caae8678436fU, 0x66eb9b6dbbc2a6a4U, 0xceca9bac828d5a50U, 0x87d8b1b8be7084e5U,
  0xb8a6e18ab7b07eddU, 0x9f84daaa54975277U, 0x846f5e5daab56c8fU, 0x3d8a745e9d47d4ccU,
  0x606fd166b3b0677fU, 0xa1e8958cce49bba2U, 0x565e84888a7bd9a4U, 0x9557a966cabc60dbU,
  0xced1cc648d576c79U, 0xded9697b9bc27fc6U, 0x9fa487bc323d917eU, 0x7cae8fb7e4a4ecadU,
  0xc17298b7a47c5367U, 0xa19e97df57dd8b79U, 0x5dc45ddd4cb2e36bU, 0x695d78af8ad7508eU,
  0x7ca36cb0b4ae6f88U, 0xea4c57bd6378d4c3U, 0x4a65b5dc7faa8584U, 0x97b86abab5a66c91U,
  0xdabc5af291aa4f92U, 0xd389e3cb569de372U, 0x8e6dc49d68cd6e90U, 0x71ef52efb646b559U,
  0xa6e7dadae6919b83U, 0xaed7804c85b6b29aU, 0xb464bbb28cd85fccU, 0x94f16368d5b5b95dU,
  0x84ea9d6fe96190adU, 0xe98288cfb39386b0U, 0x853a70d5b24f98daU, 0x91e775a5966d7f70U,
  0x54a67a955d985bb2U, 0x7062b7ed8aa0bfdaU, 0x7383cd6d8dd458a4U, 0xdec79c555089c57bU,
  0x79db9bb4dbc6767cU, 0xa3ea669dca8cb459U, 0xf79dd15b5867a9c7U, 0xcaef9a7dcf676f50U,
  0xca5162c674595882U, 0x544dbb65c676d486U, 0x92af8aad505b52c7U, 0xd966e99e52b1bf62U,
  0x69b7507075c362c9U, 0x77bcc090c251a2b6U, 0x946f86e4b881de68U, 0xbf52aea85757ec7aU,
  0xf163746382b853e0U, 0xc6a590bf7497efa2U, 0xba70a18264ae6a7fU, 0x57aad65feb97527eU,
  0x8eaf977faa7f628aU, 0x7e7ac1b1b2a1bf79U, 0x658375eb8cd3c3e9U, 0xc855b357c2a299d3U,
  0xc14f60aae59ae356U, 0x54c0a9aab4668263U, 0xaa98d9a4a49ab28aU, 0xaf86907a51a8b3c9U,
  0xe1e7c1a69fdbbfb5U, 0x5995c9c06a8e8785U, 0xde6eb1a389bf86b7U, 0xc3c8597ae6be597aU,
  0x78a26ecfc1b3e1c5U, 0x6ff091d6c5838cdeU, 0x87c6f3b9c8839892U, 0x82b66d8fbacf70a2U,
  0x52959de37191a1ddU, 0xe88d8c5e9be15475U, 0x8cafb959b6a3c495U, 0xef98dca1b8a0bc7aU,
  0x9655c96489c1b9cdU, 0x9c576374a0a0dcbcU, 0xa84872cb6a7a6b82U, 0x66697171905acdd8U,
  0x9bac68a9baf098caU, 0xcd9083a5433eef80U, 0xd0a3a090da5b7180U, 0x9de76da0d0c56fbdU,
  0xf1e46d9c4fabbf70U, 0xe37d915555915c78U, 0x7eb7d54f6e9767a3U, 0x6ce98ac6a073cb93U,
  0x6bc07e6e506faef4U, 0x66a695a5a9bfbcb8U, 0x685165a37765c06eU, 0xbf4fbf7649d4c983U,
  0xdfbbb35a54658d84U, 0xacb9845bde7792c2U, 0xa47556a99ccb9ea6U, 0x7471d8769aa86a65U,
  0xc26997d457e0a176U, 0x51b47cdec3525de0U, 0xe8e59eac4d6b9760U, 0xb5f37f625ba2a079U,
  0x8f66a19d51d9cfedU, 0x5d53bf9c4093eb8aU, 0xc38990d6316db99bU, 0x797abb5468a8ebb4U,
  0xb5a55372bacb9a54U, 0x9ddd9453685db7a8U, 0xcbbeb6d8499fb9dbU, 0xd0dd5a5ca5e4a284U,
  0x7abad590cab1d8c3U, 0xe3c8d7aa9eff8af7U, 0x8896d1d39f96ab8bU, 0xd0f1c57fd5ac7ad2U,
  0x4f93ba82ba6eb97aU, 0xeeb8ebbecfaacbdaU, 0xa0caacc386af9050U, 0xb76aace7d2b86dccU,
  0x5f5cba987bbe55d1U, 0xeab89dd672e17eeaU, 0x826a65c25e9dda6eU, 0xc3d264cb9a60e2aeU,
  0x8673dca3705ba355U, 0xbde9deecc8caaecbU, 0xcc5954d1474c8acbU, 0x4883e0b373c2f08eU,
  0xabb18f849e5d87d8U, 0x835787b9b568a34aU, 0xd08157b985bad857U, 0x8357b2c2525ef296U,
  0xe57455a358e2a482U, 0xeda7b3adc577ac59U, 0xb4cfb1d46a42c2cbU, 0x45e287ccad6ccb5eU,
  0x57eeaed68bbba98eU, 0x77bae25fbe4d9e9aU, 0x9fc8dfadcaaf8bb8U, 0x67aa4ec7769d5180U,
  0xe1cb888e96728465U, 0xbcc9c3619fbbc7d8U, 0x958fa4d9dc938495U, 0xd7f2835d7ca0c356U,
  0x6c61d68a4b6c94a9U, 0x8c5967a788975480U, 0x60c87ca2356bce4eU, 0xd1acb074c6bca486U,
  0x5d7076b399b4556bU, 0x58dfd161c7a3dc6dU, 0xb55890a8b1a1d98eU, 0xc055a25886708dc2U,
  0xbd5d8d89be04f8ddU, 0xbe10981dbda5a9e8U, 0xbdb3011cbe20101bU, 0xbe1828463e62c63bU,
  0xbe12d23abdbc0d11U, 0xbd5bdbaebd0f0435U, 0xbe04ceedbd074dc8U, 0xbdbc09e9be0b330fU,
  0xbd67bd33be14fa2dU, 0xbd8ff732bd12765fU, 0x3e0f13acbd2b6761U, 0xbdb696633dc04869U,
  0xbd179f33bdea3706U, 0xbdd61863bd6dae23U, 0xbdb8c19dbd9d3368U, 0xbda8d8363d7cc91eU,
  0xbe3ef476bb6c2b21U, 0x3eb71d503d902fbbU, 0xbe1ad8973cb013b0U, 0xbe84f2fe3d8e9890U,
  0x3dbd56f03d48c01bU, 0xbc85c8a0be932d03U, 0x3ddaa0903ddd79b2U, 0x3e5d51a1be0d2332U,
  0xbd65e196bec2ceffU, 0x3bda7dafbb655f95U, 0xbe0594983d89c194U, 0x3ce9e0063e5e6ea5U,
  0xbddbaf943c89da90U, 0xbe0c9adcbe032e4aU, 0x3e14fac33e658491U, 0x3e913a28bead6043U,
  0x3d9700e0bea45721U, 0x3d50300bbe574398U, 0x3e259da43e176bcaU, 0x3e9b41b1be2de17fU,
  0x3e3377053d957411U, 0x3e46c735be8c3154U, 0xbe914a283ea10d17U, 0xbdec08e53e29e19fU,
  0xbdc173fe3e66b65eU, 0x3e9e9629beaf84d6U, 0x3dedaa04bdf930c8U, 0x3df61552be2ebaa0U,
  0xbc1dc81c3d2d11a0U, 0x3d43a78fbde06b53U, 0x3e07bbd13ea64699U, 0xbe901683bdd05119U,
  0x3e4c72e83dfac362U, 0xbe905370bcabb141U, 0x3e8ab017bd383b87U, 0x3da27f58bdaba985U,
  0xbafd296dbdd5b6a3U, 0x3ea261c93c86e4fcU, 0xbe85fccabb0403ebU, 0x3e9116963d3d66e6U,
  0xbe33054f3e899262U, 0x3d88e22cbcb04607U, 0x3da3b15c3e56c98aU, 0xbe3d3f54bd39f3a0U,
  0xbe92e9f8bc13153bU, 0xbd861f0dbe6db3b8U, 0xbeb63dc3bdeef58aU, 0xbe03b8e63cc79613U,
  0xbe1863fabcb64b7fU, 0xbe83274d3d713855U, 0xbec788563e436250U, 0x3e2d0b89be04fe00U,
  0xbd665bf6bced34afU, 0xbec5dff6bdb8bd40U, 0xbd245a0b3e10b3a4U, 0x3c70fe58bde4cdc8U,
  0xbe7f55f9be994f3aU, 0x3e876bfebe47b9d7U, 0xbd401d0c3eb9129dU, 0x3e57b96cbe436681U,
  0x3d10da5f3d988d61U, 0x3e97e421be8dd5e8U, 0x3e8112993e75fd08U, 0xbe9c57793e80e8d9U,
  0x3ddb062ebe8e194aU, 0xbdb55f353e8c1bf4U, 0xbe70cebdbe465714U, 0x3d52b814be279371U,
  0x3e1fbaa4be92600fU, 0xbe5f3241bde8b2c8U, 0x3e0dac6c3be4993aU, 0xbd39ac67beb0cd73U,
  0xbca1c297be335087U, 0xbebec97d3d0c5fd3U, 0x3e435e3a3e8a223dU, 0x3e0ab65ebd9897f0U,
  0x3d4db84fbea65138U, 0xbe39b4083be4ff36U, 0xbe471444bdadcb95U, 0xbe65fcb8be2163d9U,
  0xbeb2366d3e8d00acU, 0xbec12903bbd8407cU, 0xbe1b814c3e2493feU, 0x3e26210dbdb09645U,
  0xbdadcc26bd3fc4b5U, 0xbe448a1dbe389d48U, 0xbebedc71be35652bU, 0x3dedebeb3dad7898U,
  0xbce1abb83e5a0e95U, 0x3d55bf253e236facU, 0xbcd5f2663eaa3dc2U, 0xbdb2a7dbbda3b6aeU,
  0x3da2a455bd023073U, 0x3dc1d49ebe331df6U, 0x3d55f9a43e0b79c3U, 0x3e4dc6023e142528U,
  0xbe6dd6d2be58183cU, 0xbec8d3553d039aaaU, 0xbdcf77cc3df8da9eU,
};


ai_handle g_predictive_weights_table[1 + 2] = {
  AI_HANDLE_PTR(AI_MAGIC_MARKER),
  AI_HANDLE_PTR(s_predictive_weights_array_u64),
  AI_HANDLE_PTR(AI_MAGIC_MARKER),
};

